/**
  ******************************************************************************
  * @file    network_data.c
  * @author  AST Embedded Analytics Research Platform
  * @date    2026-04-24T16:16:56+0800
  * @brief   AI Tool Automatic Code Generator for Embedded NN computing
  ******************************************************************************
  * Copyright (c) 2026 STMicroelectronics.
  * All rights reserved.
  *
  * This software is licensed under terms that can be found in the LICENSE file
  * in the root directory of this software component.
  * If no LICENSE file comes with this software, it is provided AS-IS.
  ******************************************************************************
  */

#include "network_data.h"
STAI_ALIGNED(8)
const uint64_t g_network_weights_array[1532] = {
  0x3dba8c353c0f919cU, 0x3d45b6a03c001670U, 0x3dae2c743c9f7280U, 0x3d34998a3d9c3c67U,
  0x3bbedb5e3dc87070U, 0xbe9a6db23e45b074U, 0xbd689f233e1c1e62U, 0x3da113bf3cf6822dU,
  0x3dfe85afbd0f5c86U, 0xbc9790103acd6687U, 0x3e805be9bd65c580U, 0x3e06577e3e3c56cdU,
  0x3d1646293d8e7a9aU, 0xbd3a85e1bdb09303U, 0x3c8263963d73162cU, 0xbdbc2d98bce67115U,
  0xbdb65a4a3ceef478U, 0x3d454d2ebe559010U, 0x3cb9bb7abda7f00fU, 0x3df0bf483d57cd6bU,
  0x3dfdcdfb3e56b465U, 0x3cc869de3d7a8a5dU, 0xbdfe22173c7b63eaU, 0xbdf56c24be0a477fU,
  0xbc749e66bd43ba5aU, 0x3ac6080e3df37f5eU, 0xbc9a28edbdd0172dU, 0xbd8a49233e040786U,
  0xba07feb6bbf0b552U, 0x3da1747b3d545999U, 0x3da55e7fbcc6bf14U, 0x3dbdbb843e19f371U,
  0x3cc1780bbcca6495U, 0xbd1919e2bd6eba06U, 0xbd7b3c34bdd92ff4U, 0x3c651395bd158de3U,
  0x3eb8de70be89a408U, 0x3d07c899be0cd186U, 0xbd75b10a3cf8be6aU, 0x3d63d18fbe264341U,
  0xbdc53786bdb423ebU, 0xbd9975c1bdac3f51U, 0x3cbe6c95bd592a3bU, 0xbc9610d03e778928U,
  0xbe47a9cf3eb02073U, 0x3d9bb88dbdcba86dU, 0x3cd651983e28db03U, 0xbd98339bbd2ca374U,
  0xbd0dd2bf3dc9a51bU, 0x3df94956bccf58d4U, 0xbda042e0bd08c4d7U, 0x3de0ba54be0537b4U,
  0xbda87a7dbca12934U, 0xbdc1401dbd8e064fU, 0xbd47e90cbe0f6839U, 0xbe355bdabd1e4cb2U,
  0x3dfcd7133d9fbcb5U, 0x3e1a17f13e2f4b1eU, 0x3c1702273d8e4416U, 0xbd4cb7c6bd184158U,
  0xbd857ff9be545842U, 0xbda7d9f7be79309eU, 0x3e4571033d98d875U, 0x3dcbbca53e1fe29bU,
  0xbdaa1489bd18b74aU, 0xbd4d386bbd1bbd95U, 0xbdd0b48fbd658f12U, 0xbd53fcfe3c54ba3cU,
  0xbd6df765bd907914U, 0xbdd273c2bd975a52U, 0xbdc3a44ebd4d881cU, 0xbce35b1bbd01bfb6U,
  0xbc6ed0cbbd9717e3U, 0xbcfa03ff3d40e081U, 0x3db4c21fbd237125U, 0xbdea93e1be08ca3aU,
  0xbc738477bd56a776U, 0xbd5d21b0bd167514U, 0x3d4fd31ebd6b6031U, 0x3eaf74f23e7692e9U,
  0xbda8e3c6be3a9214U, 0x3d0e0e103dc31a4aU, 0x3de1ccda3d804129U, 0x3da92dad3db90f5cU,
  0x3c0b2e643ca63fecU, 0xbd7e926a3c6c4e68U, 0x3c6043053d6fd253U, 0xbe7e2d75bd9c35caU,
  0xbdb276933d9885c3U, 0xbe85653e3dbdb540U, 0xbe091cebbdde388dU, 0xbe242529be0d5e7dU,
  0x3df45011bbe6294cU, 0xbd0e0f5ebdad5131U, 0xbdb3cff6bde8efd6U, 0x3d8c33f53bd23e2bU,
  0xbe19c93c3e4c49adU, 0xbe563fe7be8a0753U, 0x3d7c37ea3c841ec7U, 0xbc851b06bdaa3e85U,
  0x3c281250bc8c3fb9U, 0x3d90e6e33d011da1U, 0xbd8c983abce1360cU, 0xbda1db4fbcf44a33U,
  0xbdbce7d4bdd579a6U, 0xbdad0bf8bd858a42U, 0x3db694b3be0a1c4bU, 0xbcbd79583d444b36U,
  0x3bc0f93d3cb1f457U, 0x3c8d9e69bd097f47U, 0xbe65d4e23e089a5cU, 0xbe52a06e3e832ea7U,
  0xbd520ccf3da2dafdU, 0xbd887589bd0eb450U, 0x3dbcb5b23d6069b6U, 0x3e0491f5bd2d40f9U,
  0x3cab8a8bbe37451fU, 0xbbe421ffbce74688U, 0x3dc3695cbd073835U, 0xbe0e82463d8ac998U,
  0x3c77f510bd5fa2b6U, 0x3db77a4fbdeca0c8U, 0xbe7e51663cacf8beU, 0xbdc7056b3da8ed09U,
  0x3e0a55d4bd1d0ebaU, 0xbe7f41d83d1bb8a3U, 0xbba925853d9ed310U, 0x3dd77818bb59e750U,
  0x3daf2ba73db8ab74U, 0xbcec1d58bdac1901U, 0x3cfe88c5bd73f5eaU, 0xbbd4caa7bc98fa74U,
  0x3d9545bcbc238f44U, 0x3e691a3abe22cc2dU, 0xbdd67674be4dc76aU, 0xbce0940dbda664feU,
  0xbd3d9ea93e5d0ccbU, 0x3de22d683de282bbU, 0xbcf0fea6bdebe15fU, 0xbe5cfd613a4e4983U,
  0xbd5259ea3c3383f3U, 0x3d69feadbe437b31U, 0x3cd9f5583d54d2ebU, 0x3bcf3a67bc96cb0cU,
  0xbcebe4903a77571aU, 0xbe1b1b67bde226b0U, 0xbe8a0caebe3fb84dU, 0xbe91a3bcbe492913U,
  0xbdc61df2bda31d5eU, 0xbb90e537bc0ee547U, 0x3cdd87963c2f8751U, 0xba3a28a83bea98dbU,
  0x3d47208b3cbda45cU, 0x3e535c833e1da7eeU, 0x3c042f45bca60cd7U, 0x3cd4c6c2bd489357U,
  0xbce6e65b3bcce919U, 0x3d7dbbe8bd33dd33U, 0x3d290723bd9bfe5aU, 0xbe75eaffbda161e2U,
  0xbe6755793deaa474U, 0xbe209d533e93df25U, 0xbd1a8bdb3e0542d6U, 0xbce29d073c1a03adU,
  0xbce55607bd811e3dU, 0x39b5dea9bd01846aU, 0x3d8bb6843c93bd6cU, 0x3dc701033c505116U,
  0x3e15996dbd5e0533U, 0x3d73ce883dbcaca6U, 0xbea0af2d3e3165daU, 0xbcc5fe34bce94131U,
  0xbcb4c6a7b9f5a3caU, 0x3c7320293c4bdb9eU, 0xbdca38b5bc7fbc0eU, 0x3d6c6e743c999adaU,
  0x3c6e3a21bdf1aacfU, 0xbe0644cd3e3ed8fdU, 0xbdebbf013e117bd8U, 0x3bd2a8bcbdda6587U,
  0x3bf02fa03de60a41U, 0xbd4dd3d6bd1c6647U, 0x3d8f19ed3d61138dU, 0x3db46386bdf914bbU,
  0x3d34bbb13d8b70d3U, 0xbca473a7be7921f1U, 0x3e250d37bc859639U, 0xbe1499b4bd6edbe9U,
  0xbe338a0b3db394a5U, 0x3d1674a0bc824cfcU, 0xbe97c180bc7fa6b4U, 0x3bbff1603d453939U,
  0xbb60871f3e387c44U, 0x3ef0ad9bbb4c0046U, 0xbefc95bb3aa7e70cU, 0xbed2f3b93d3fc522U,
  0xbb8861b83f11109cU, 0xbe84bcd4be99bf1fU, 0xbb25c34cbae646d8U, 0xbf1374c2bface1f7U,
  0xbb4300cabf81d08dU, 0x3a50ef02bac3ab0aU, 0xba9f67813e162116U, 0xbbb1f673bf606c87U,
  0x3d8c64a6bdafc856U, 0xbe036a10bd9eaf4dU, 0x3d942fefbd58849dU, 0x3e0f0257be74262bU,
  0x3e11a241be66e121U, 0x3d7ca1763d4d29c8U, 0x3e0c44c23e27df8aU, 0xbdd402c83f3211a0U,
  0xbe04f9f5bbe38bc9U, 0x3de12aff3b6d0bebU, 0x3af5326abe0e6953U, 0xbe3304323e9883e3U,
  0xbe502d66bae6a663U, 0x3e2f06963da0deffU, 0x3d4880a8bdaa809bU, 0xbc5ed119bdaad873U,
  0xbe60e242bd01e0a1U, 0x3d80ad903d1b02e2U, 0xbe400632bdd21a27U, 0x3e3df2643e4584a8U,
  0x3dc189d53d438e3cU, 0x3a0531263c447815U, 0xbc12f0a83d2627c3U, 0xbbce3f17bdec17eeU,
  0xbda97650bd1ffbf7U, 0xbd206dce3d8aa90fU, 0x3def946ebe57decdU, 0x3b96d5b5bdccc52fU,
  0xbc6e99b83d7e36f0U, 0x3db51d153c8b31f8U, 0xbe2a007e3d6647edU, 0xbd0d82353e0ef4d0U,
  0xbe02b1f63e67fe53U, 0x3dfd478e3d14c901U, 0x3d7bca69bdcec971U, 0xbe8163823e7527b1U,
  0x3e2a0313be57ae57U, 0xbe64bda8bd2653ffU, 0x3d8175d4bdd7895aU, 0x3e4ea7d0be6318c4U,
  0x3de19b203e0db602U, 0x3e054fedbce9da4cU, 0x3d4616703df1084eU, 0xbdba0b623f51c3a5U,
  0xbd422317bd97295fU, 0xbd35b94cbcaa38f7U, 0xbe0f69273c335148U, 0xbde5619f3e728a39U,
  0xbe42b8f6bc22ae20U, 0x3e776e7a3d6c61c4U, 0x3ddce240bdce1df6U, 0xbb7cfdaebb537814U,
  0xbe3cfa0f3da21e72U, 0xbdde4076bd2a6cf4U, 0xbe01ca17be135957U, 0x3e253c813e87872cU,
  0xbdad6ca73d1b746aU, 0x3df4bd1c3cbfc83fU, 0x3d80a2833e2efb5eU, 0x3cf24e47be55d050U,
  0xbddfd075bd706386U, 0x3e0b16073e503abdU, 0x3d0c5aacbe89c088U, 0x3df66ba0be1a768bU,
  0x3c79dbee3e51927aU, 0x3e832cd3bd274b52U, 0xbe2d0dd1bc261205U, 0x3cac3a633e26324aU,
  0xbe2d95663e983640U, 0x3e48588abd97496aU, 0x3c47fcd0bd8bac1dU, 0xbe96c69b3e8f59f7U,
  0x3db31cd2be8408caU, 0xbe5418813d427a99U, 0x3c5e66aabdf7ebe2U, 0x3e868d0dbd38a741U,
  0x3dbe4b0c3e37957fU, 0x3ea050053de5be6cU, 0xbd61db703db3d94eU, 0x3cb16e373f2518dbU,
  0xbda3e2573ce0fe4aU, 0xbcf1aae8bd802855U, 0xbd8a2d30be2d0631U, 0xbcf5bbef3dcdda5eU,
  0xbe25f1f83d2d9738U, 0x3e89b3b7bd265196U, 0x3db5ffe93db799b4U, 0x3dc13ebfbd9b1f04U,
  0xbe1839b73e1dbd04U, 0xbc871569bc6e0a33U, 0xbe0a2aaabe027fc7U, 0x3dd336bf3e013eb6U,
  0xbdce192a3e266ddfU, 0x3d14b9793d8a6616U, 0xbca67ddc3a352220U, 0x3a206444bde71d5cU,
  0xbdee4d77be1462c7U, 0xbd7262733dfaeeadU, 0x3d98ce0bbe1cd15bU, 0x3d42f8a5bdf7a85cU,
  0x3d810bf23e653930U, 0x3dee91eabdcb11a5U, 0xbe2767143c911612U, 0x3e3dfcf23ea4d406U,
  0xbdd96c6c3ec03222U, 0x3dfbba64bbad3f63U, 0xbd08006ebde93eecU, 0xbe5a0bd33e6f8832U,
  0xbd8f9f35be2d7f18U, 0xbdfc01783d51a171U, 0xbc0c6ac4bdf14efaU, 0x3dc3bdbcbe72dc10U,
  0x3dbeb9fdbe1b2911U, 0x3e061d733e3575bdU, 0x3d1961b13de67a21U, 0x3c41bd763f02a759U,
  0xbd0641d33e43a30fU, 0x3e6fc4073dda705bU, 0xbd9cdbd9be224446U, 0x3c8e454c3eb484c2U,
  0x3d856ac5bd50c1b2U, 0x3ce8500fbda0d820U, 0x3d08d377bd960ff0U, 0xbc102049bdf876c2U,
  0x3dd7d565be4f9c31U, 0x3df5b9ee3de6551cU, 0xbd9cb8603d9d5bccU, 0x3cb3d1943e2c0c34U,
  0x3c288f91bd7e7b3fU, 0x3e4bf1e13cb143d6U, 0x3bc50e01be97641bU, 0x3e24a5f83e68328fU,
  0x3ca9cf8ebe010650U, 0x3d257bcf3e88b4aaU, 0xbdf039c3be0a4cacU, 0x3dd7e2eebe339305U,
  0xbd1886a1bd3a4c3cU, 0xbc98b0d23dae833bU, 0x3d7c3fcabd8d3a41U, 0x3d5941343e17b620U,
  0x3c8ca4adbd2ab2b0U, 0x3dc737ea3e4508c8U, 0xbda3f9c3be708e7bU, 0xbd85913fbd22d5a3U,
  0x3d32d798be8ed216U, 0xbd3a8bd1bd80a19fU, 0xbd4cb89fbc8694ddU, 0x3d983322bda029efU,
  0x3df6b389be248f4fU, 0x3da16f9c3d965482U, 0xbd3906d63d902559U, 0xbddddc473f3bae90U,
  0x3d7ef5263d216deeU, 0x3e0cbc6b3e5c23b0U, 0xbe3f1dd3be51f690U, 0xbd554a193ebaec61U,
  0x3db05940bdff43b6U, 0x3d8be6f93d644a69U, 0x3c12fc09bd74ca27U, 0xbe12bff93d8af64dU,
  0x3e044c68be4bc8f1U, 0xbd92843ebc0ad382U, 0xbd575ee63e0eb81eU, 0x3d006a343e59ad2cU,
  0x3d61179d3d0a5a32U, 0x3d10b52a3dd11cc5U, 0xbd61e898be1937a0U, 0xbc102b1c3e5cd51dU,
  0xbc974d79bda549aeU, 0x3dbcc2c13e58a845U, 0xbe1cc93dbe6ea3baU, 0x3dc225c33c68bce7U,
  0x3d82794cbcc36967U, 0x3e220dd83e201cceU, 0xbda78cb4bd98c1dcU, 0x3e84b5c03e415253U,
  0x3db7a5913eb21f2fU, 0x3e017fda3ea29923U, 0xbd8b2b50be8001d1U, 0xbd0823aabd5e1be8U,
  0x3e07d339be33d35cU, 0xbb2d2186bcfcb961U, 0xbdc3e17abe291f9eU, 0x3e24cf573dad4d3aU,
  0x3da831e9be9372f3U, 0x3e488c683da6014dU, 0xbe67f86bbd48d18cU, 0x3dbf277b3ebf03ecU,
  0xbc5feb0c3de5510aU, 0x3e1e219f3de9eff5U, 0xbe8617ddbd8d5b5aU, 0x3d89ca1c3d8b0451U,
  0x3e189eeabe8f2c99U, 0x3e0b2dda3d477769U, 0x3ba611d6bbef0b2fU, 0x3c80108c3c577766U,
  0x3e2f3723bde607ebU, 0x3c047507bdbd849cU, 0xbdce45d93d8a1928U, 0x3db2d1433e86d65fU,
  0xbdeb224c3e74bc49U, 0x3e237f0c3e0697b9U, 0x3d8bf45bbe64a56aU, 0x3d8cdb3abd9aa596U,
  0x3d978726be224870U, 0x3ca81d743e7bc380U, 0xbeb74303be85f1c8U, 0x3e05c3f6bc04b1e9U,
  0x3ce9ddcfbe243b28U, 0x3d99df373e6a5e68U, 0xbdc7ba3cbd27bd8cU, 0x3e73571c3dbf4601U,
  0xbd5a4fbf3e887026U, 0x3dca5a043e92e05bU, 0xbc2b7c6dbe917757U, 0xbdbed27abe208135U,
  0x3e180ff6bd32be37U, 0x3d7c20dc3dd724b3U, 0xbe82a371be4efb83U, 0xbe51de15be31aa0cU,
  0x3de8225fbe02e397U, 0x3de509aa3dbfda20U, 0xbd5b7b1e3eb74202U, 0x3e43719c3e8be1cdU,
  0x3e963e3d3e42c1f2U, 0xba83a73d3d98a739U, 0x3eba35293d20ad9eU, 0x3d8c7e583e316fe7U,
  0x3ebb5b7c3d97dbdcU, 0x3c5952f13e229999U, 0xbe2c5b8cbdf3b262U, 0xbe2c8bfabe494217U,
  0x3e0ba720bd3a84a7U, 0xbe34aee93cd24216U, 0x3e72eb633ec76d06U, 0x3d672c9dbc79f67fU,
  0x3e7e570abde2dca9U, 0x3e2379143ebf5fb1U, 0x3f1c5e11bdc91ba3U, 0x3e30613dbd93ae78U,
  0x3eb3130e3de642d6U, 0xbe7067dc3e477063U, 0xbe4083f1bda86e24U, 0xbe37df27be345154U,
  0x3ca4c270bd324bb3U, 0x3e314df8bdbe44e5U, 0x3e4334b53edfe162U, 0xbdf139d13e7782c6U,
  0x3e0607bb3ea3e053U, 0xbda52b8d3ee9af7dU, 0x3e0119a23c847573U, 0xbc8a06d9bc997571U,
  0x3dc5d556be0988b1U, 0xbddd8c9abc8d8a42U, 0xbdc3906eb92e354cU, 0xbe1791b6bd116cdeU,
  0xbc320eb3be6dc02bU, 0xbe394672bdeec7c3U, 0xbd5d1518bcae079bU, 0x3d9ba2d43e65d730U,
  0x3e8a31763e26d3eaU, 0xbcc60b5d3dca3e6bU, 0xbc9948403daa777aU, 0x3e1901303e64de80U,
  0x3d73f8173debd45cU, 0xbcc56a92bd1bd59eU, 0xbedb91823e8411ceU, 0xbe65b43bbe82f44eU,
  0x3cf97658bd187818U, 0xbe145215be91df86U, 0xbda0a0543cd06f58U, 0x3de690b5bd563693U,
  0x3e5482e7be9e5e7dU, 0x3de883c8bd7d1991U, 0x3ed9cb023d7b9db2U, 0x3e58744d3e9d0895U,
  0x3d82d6ec3e0a6034U, 0x3d909602bdb60781U, 0xbe333f7dbd186c14U, 0xbe0c03573d4663abU,
  0x3d2ba5e93e39de74U, 0x3e8f06b83e3a22b3U, 0x3e31d6fc3e18beeeU, 0xbe2af62d3d08c782U,
  0x3d7e54fc3eb0e22eU, 0x3e4726f83ec08451U, 0x3d231fb2bcdd7a9fU, 0x3e8061d0bd836d5dU,
  0x3d9f49aabdbbda3eU, 0xbe1b78363ddc0d32U, 0xbe14fc8cbe698671U, 0xbea9170ebdef7505U,
  0x3eab628e3d0d5008U, 0xbd5b7126be545d9cU, 0xbdbe56d23e008a8bU, 0x3e2ab41bbceff016U,
  0x3cf6186ebe07b59fU, 0x3d851d33bc8b559cU, 0x3ddfb3d4bd826742U, 0x3e6eaa173de55403U,
  0x3e076664bd7a5a07U, 0xbd8bb6143dd8100bU, 0xbeab3ba0bd3231d0U, 0xbe8b65e43ddf8263U,
  0x3eac4b27be5ca08cU, 0xbec77f603d582605U, 0x3d4877003ec4ab7dU, 0x3d7989843e62a4dcU,
  0x3ddc7e60bdbf6d43U, 0x3e72e377bdb91d87U, 0xbbce823a3ac64f15U, 0x3e31bb71bb2c7ddfU,
  0xbd143f303d8bed71U, 0xbe83b2fdba7bf328U, 0xbe3636f33be1f204U, 0xbe3c9a493e3c9754U,
  0xbb8bd0133ea30ab8U, 0x3e1f8488bd392bafU, 0x3e991dd93e8b7861U, 0xbdb60ff63e3de844U,
  0x3ddb2b2e3e9c08f4U, 0xbd9dbad33ec67158U, 0x3b38b5923b219e34U, 0x3df85948bd61e22eU,
  0xbcab142fbd04b21dU, 0xbc3d939d3d66f074U, 0xbe7f6b2abe0b4d00U, 0xbd9f5446be3df110U,
  0x3e637909be9ef863U, 0xbdaabe18bd8a5119U, 0x3e33b9903ecfd5bdU, 0x3db96f023e25762eU,
  0x3eb54f2c3d9c279bU, 0x3e167a9b3d9b9fd7U, 0x3e7a838b3c69f9b6U, 0x3e0d24523ea4e069U,
  0x3e3e47cb3e05f083U, 0x3e1019163d43400fU, 0xbe594b543cbf6840U, 0xbe510a6ebc979a53U,
  0x3dc05ed83cd4d47fU, 0xbe9a5da83e30c92cU, 0x3e7754253ef2452eU, 0x3e3d2bd83c034801U,
  0x3ea5dc81bd547765U, 0x3e8fe4e63e643046U, 0x3f271c993d51a5d0U, 0x3de478793cf382c2U,
  0x3e97d30cbd0f7df2U, 0x3c9002493e50d92bU, 0xbc6bc2dabe1d08abU, 0xbda81269be6818faU,
  0xbe12bf993e39f5d9U, 0x3eddf8463d3d6689U, 0x3ea16cd23eb787e6U, 0x3bba41853eb1f5faU,
  0xbbbda8513eb0e57cU, 0x3e6163c73f0b0bd7U, 0x3e5f14fabdb9b1a9U, 0xbe1f4cfb3d8e549dU,
  0x3dce7964bcd3c86cU, 0xbd9c3f85bdc85df9U, 0xbe6035cebdc1cf17U, 0xbe7781c0bda3af5eU,
  0xba30680fbdc46cd9U, 0xbe20595a3dab02e1U, 0xbd70f2efbd4664e9U, 0xbd4ba2083f0d66f6U,
  0x3e4a7b123d9a331cU, 0x3e3a296c3da21b13U, 0x3cd24466bd949a3cU, 0xbd9a5a593e98f446U,
  0x3e3ea195bca3d71fU, 0x3df88a13bdbfcbd1U, 0xbf05f5ef3e751cf0U, 0xbe9b3431be3f180dU,
  0x3e391d24bd254773U, 0xbe789f94be0a6331U, 0xbc9387fe3e27463bU, 0x3d5e15043e26dedcU,
  0x3e050b07be719aaaU, 0x3e8f05fe3d6f34a7U, 0x3ef78dda3ca44de2U, 0x3c237ef73db7393eU,
  0xbd9e75523cba4f8aU, 0xbcdd3d4f3da9e77cU, 0xbdcbae18bd7c871bU, 0xbd83058f3e79995eU,
  0xbb25c54b3c82f212U, 0x3e3f9ecfbe4dbdb8U, 0x3e336be53e5447b2U, 0xbca0f3123e806beeU,
  0xbc86634a3f004a68U, 0x3e63b5ca3e5c9e1cU, 0x3e407585be706c03U, 0x3eb1e019bd3c1dbdU,
  0xbd87ceabbd900c12U, 0xbd49c6813c5dca2aU, 0xbe923b1dbe304f66U, 0xbe93a209bae61038U,
  0x3eb4ba7abdd901e5U, 0x3dc708c4bd8b2458U, 0x3d8df38e3e1e5c60U, 0x3e8681c83d019961U,
  0x3d53a75dbd2a2b79U, 0xbd2575d2bdb19137U, 0x3dacad64bddfe817U, 0x3e111b0b3df6f090U,
  0x3e1cf7003e54e958U, 0xbe10f7a4bb6c9f48U, 0xbed1a69c3d76f33bU, 0xbebe566a3dc81105U,
  0x3ebaa232be46b755U, 0xbef8d5d1be241e85U, 0x3e693ad93ec03a41U, 0xbe90ee033e874230U,
  0x3df4b3f9be20cd72U, 0x3edab9a73b07af0fU, 0x3ce374f2bdddd312U, 0x3cdaaa32bdc41ca4U,
  0x3c9b128bbd860f57U, 0xbe2bb53c3c33e412U, 0xbe5d4998bd82f83aU, 0xbe1131833df126b1U,
  0xbd9fad843dfc1be1U, 0x3ea0fbbcbdc8fc21U, 0x3e1ef4cf3eb43927U, 0xbba2e4da3eec114fU,
  0xbd902c7f3ebcca93U, 0x3df492723f07c8acU, 0x3daf24d9bd80f29bU, 0xbdacfdcfbc41a1c1U,
  0xbd6c30823dc078dbU, 0xbc5beeee3d376c79U, 0xbdecdf2e3d1e0c0aU, 0xbd6432ab3d2c737fU,
  0xbd524c6d3c8b61d9U, 0xbe0119c23c11fc47U, 0xbdc4e1a6bda82484U, 0x3e372e2dbec9757eU,
  0x3db8d7f73c830ed9U, 0x3da103953defb162U, 0xbdfba8c03cb434d9U, 0x3e2a15a6bdaa88e4U,
  0x3e4a18ddbe45257cU, 0xbe0038d2bdc4b8d8U, 0xbc5d48c73decfd3fU, 0x3d1c04ec3bb0e2aaU,
  0x3e6ec63ebe2aeb96U, 0xbc84b48a3d203fd1U, 0xbb9296883e3ebcb5U, 0xbd4d8961be0e29abU,
  0xbcfd1bbbbdc0c2abU, 0x3d517baa3d778bd5U, 0xbd66a741be18599bU, 0xbb5c48303e3f7739U,
  0x3dd733c8bd2f0c5fU, 0x3cc2b5bd3e19e574U, 0xbe06fc613d80a15eU, 0xbc39fb9d3d816a4fU,
  0xbbf58242bec880feU, 0xbcbe08a53e131aa7U, 0x3e4f61a8bda83dc1U, 0x3e075a86be67c35eU,
  0x3e0ddf52bea61730U, 0xbd0cc3b53e24d0dcU, 0xbd81c828bde047c4U, 0x3e414c53be4c0aa1U,
  0xbdcec58f3da8ab84U, 0x3d7f92d63c8b6fb6U, 0xbd6e10f43d381e14U, 0xbe4303643d1b6110U,
  0xbd3af235bdf75271U, 0xbd32e6243d36a5e3U, 0xbddad047bd95235eU, 0x3db481d2bf254ef4U,
  0x3c27d4433de5e69fU, 0x3e053be03d58cc74U, 0x3c60fc5ebd660db7U, 0x3e034b5ebcccf38eU,
  0x3e3beb5bbd945e0eU, 0xbe7ac9d7bd57fefcU, 0xbc0cb26b3de75502U, 0xbcd395d63e00053bU,
  0x3e4f1f77be1d2a64U, 0xbd0ef6553c09e7f8U, 0x3d188a633e206bfdU, 0xbdd2b999be5b5f86U,
  0x3d094ec3bd67b6d0U, 0x3c8bfafdbd083776U, 0xbb48fc15bdc57965U, 0x3ce90d413e447683U,
  0x3db80408bdd3c74cU, 0x3d8764ebbbd55b71U, 0xbe199c603b5e3e63U, 0xbcdf066a3da614e0U,
  0xbdae1090be9a8893U, 0xbdd371b13e491881U, 0x3e1f0df0bdd52ed5U, 0x3e16a9f0be2543b4U,
  0x3dd6ec91be1c31c4U, 0xbdb1a1843ea85bb5U, 0xbd477488be2ac8ddU, 0x3e645947be722be3U,
  0xbc6781433d94f6daU, 0x3e1bf0a63cbaee68U, 0xbd40cbb83cac678bU, 0xbe01366dbdb6edacU,
  0xbd2b494dbe88f887U, 0xbe4970463b533ca5U, 0xbe092905bdef0cc3U, 0xbb91a497beef8295U,
  0x3bb724e43d0b3597U, 0x3ded7ab53e4304cdU, 0xbd9106133d726aa8U, 0x3dcfcbe7bd435a92U,
  0x3e232cf7be28ca90U, 0xbe3e61e33d420ebeU, 0x3c05054a3d08bd05U, 0xb9dc3a113c88e929U,
  0x3e668dd4be380cc3U, 0xbcb4c88d3ba61fd7U, 0x3bdc29ca3d9c487bU, 0xbd9d5d37be30a86cU,
  0x3dac1db8bd3b5fb1U, 0x3db7c3033d8644dcU, 0x3d82234fbe27fdc9U, 0x3d0e94b53d60e178U,
  0x3e519029bdf59701U, 0xbb8865e23d7bc4edU, 0xbea79182bd13733aU, 0x3d1cbd713e7b8dcaU,
  0xbaa3e401be895bdaU, 0xbd7e07193e5ff29fU, 0x3dec9110bd85b121U, 0x3de32bf6be8bd941U,
  0x3dbd9a62be7f9127U, 0xbe5a211f3e5cb6d0U, 0xbc7b6459be2d0b16U, 0x3e0c861bbeaa6c26U,
  0xbd3c7e00be01ce8eU, 0x3d9381e4bdf6f198U, 0x3d997f09be0ab36bU, 0x3e851898bbb0adabU,
  0xbd3389f73d4239dcU, 0x3e078d673e31a007U, 0xbd24765cbb3e6118U, 0x3e26fec43ee05169U,
  0xbe0920303e68fd95U, 0x3da3c5fa3dfcb921U, 0xbde8ac78bde2077eU, 0x3bddd16c3e997666U,
  0xb8839a24bd75bdf4U, 0x3dfe1ec1bdf4b5f4U, 0x3e32e699be376015U, 0x3d6c44603dc720b5U,
  0xbbc832e3bcd4c74eU, 0x3e864cc03da8a444U, 0xbe0e78bb3d70b14eU, 0x3d9f25b43e7937baU,
  0xbdc388913d834fc1U, 0x3d6894e8bd9f305cU, 0xbcbcd158bddd594dU, 0x3d020d3f3e8b5ff7U,
  0xbd9a6fa7be16b7cfU, 0x3e1aeef43ddd77e2U, 0xbd5aa897be0ee506U, 0x3e018e0abb6e4159U,
  0xbd214baebe10df0bU, 0xbbcb48663e495c6bU, 0x3dcb775fbe0f0597U, 0x3e1f65af3e10f135U,
  0xbd9ac9b73ceceae0U, 0xbbca2a613e40ead6U, 0xbd0a7de0be7643f4U, 0xbd2ccb7cbba029e7U,
  0x3b77b9ebbe2d3101U, 0xbd2d80b3be3b1048U, 0x3db6f333bdf38688U, 0x3e740f3e3ce45e34U,
  0x3bac4b0cbda9d874U, 0x3dc47afb3e260da6U, 0xbe1937ed3c667d8dU, 0x3d84766e3f17b5e0U,
  0xbdb241fa3e1bed08U, 0x3d97cf353d2106abU, 0xbe80dac7be163170U, 0xbdd434643edae45bU,
  0x3d071423bd7b456eU, 0x3d051295bd362442U, 0x3e4ca406be55d747U, 0x3e3723733e6d19d6U,
  0xbd7d58303dae5f2cU, 0x3e174c2f3bbe3b26U, 0xbdb960eb3d82c7b1U, 0x3d8d56e03df17fb6U,
  0xbd8bc03b3d80bd65U, 0xbcad7d143c856d5eU, 0xbdaf7ca1be078aa0U, 0xbd94faf53e9238d1U,
  0xbe152a22be01d020U, 0x3e27e8933db6b7dcU, 0xbcf60c50beb1546cU, 0x3e5fc8013d83d95bU,
  0xbdadb8c53e19810dU, 0x3e326b9a3e83a4e0U, 0xbdbed20cbdc3e59cU, 0x3e9298963dcb6bfbU,
  0xbc78a45a3eb9736eU, 0x3d1223f83e2bbe8fU, 0xbe06de06bdc165afU, 0xbd950c3f3d061f86U,
  0x3d71054abdd3ba1dU, 0x3d1b65fbbd2c36d1U, 0x3db29b7cbe20b3a3U, 0x3e9329cb3e2693ccU,
  0xbcada873bd429570U, 0x3e28a5483e31693aU, 0xbe68eb30bcfbc204U, 0xbc9ddaf63eb40a56U,
  0xbe1fcdec3e386bd8U, 0x3d5a0881bd2583beU, 0xbe833ae4bd1c7b81U, 0x3c1e147c3ced92f6U,
  0xbd825747be03f64dU, 0x3df6ce6e3c2cdfa0U, 0x3e846e9abd7df4a5U, 0x3e06e541bd0724e5U,
  0x3d0cd496bbbfcfadU, 0x3db5a1783d34bfc5U, 0xbe32bfed39f3101eU, 0x3e660c803e7e8873U,
  0xbe4890ad3eb1ce6cU, 0x3de69762be1c6dd4U, 0xbd5bf13dbe034edeU, 0xbc826726bd87f505U,
  0x3ab58fa1be3a0c82U, 0x3e1ab8b83e426e24U, 0xbe582c90bea9a8e9U, 0x3e550cc83d04d7d0U,
  0xbd48eeba3d93dbffU, 0x3bf1e71d3e682ed0U, 0xbcbda239bdd84900U, 0x3ea73cd53d18b2d9U,
  0xbd56bfef3e8ecaeeU, 0x3c5917cf3da9f47bU, 0xbccbbeb8be3117eaU, 0xbd575ee9be0d9c80U,
  0xbdac905c3e26c504U, 0x3e0d262a3daf12d0U, 0x3d339a1b3e1682deU, 0xbe1d790d3e241866U,
  0xbdb1df283e0ae1d8U, 0xbe22d5aebe658fd0U, 0xbcc16c70bdc03301U, 0x3cef47a7bef4c1d3U,
  0x3d14726abe3a4347U, 0xbd996aa7bd9e247fU, 0x3c0841b13e2be30dU, 0x3d24207abe8252ccU,
  0xbe3ff4ba3e127423U, 0xbd197212bc8ea8feU, 0x3d5e5d5a3b551990U, 0x3d9899a53e28b455U,
  0xbdf56d7b3e3a54a5U, 0xbd83f868bd5aba37U, 0x3d7b9282bdc1cd3dU, 0xbd9019ddbe3022b7U,
  0xbbc4783e3d4c752eU, 0xbe85bf5cbca16728U, 0x3d2a18bd3e233489U, 0xbe0f00aabe52c4f1U,
  0xbd2d868f3e02c1eeU, 0x3dbca592be32a84eU, 0x3e2ee6123d1b1eb6U, 0xbd9ec2383e1dc64eU,
  0x3d0b27943d9e4114U, 0xbd9106c6be53f66fU, 0xbe36fd073de03bc9U, 0xbc6d1f03bdd25d13U,
  0xbc1cbf8f3cd80790U, 0xbd25b329be4aad46U, 0xb98b42823e83f1c8U, 0x3cf2492b3cf95c87U,
  0xbd44efc63e28eccdU, 0xbd4644063d042202U, 0x3deab2653de0fd39U, 0xbd6b50993c10bd0eU,
  0xbdeae86f3db8a227U, 0xbd5c0edabd8b82efU, 0x3d7c64303cd62ff0U, 0x3c2e7aa9bf23b9c3U,
  0x3cb973a1bde3034dU, 0xbe38450bbdfd3418U, 0x3e4878703e5007edU, 0xbc510e51beaad385U,
  0x3cb7e4c33da59295U, 0xbe086f8bbd31daeaU, 0xbd9fc6cf3d197d1dU, 0x3da37ed03d9d3271U,
  0xbd99621e3dddbe83U, 0x3df78ef43d8ce600U, 0x3cc39dbcbe2ab46cU, 0x3db63e17bddd6591U,
  0x3cc0aef2bd3fc1c7U, 0xbe0d0873be00803eU, 0xbcd230973e1ec740U, 0xbdc2692ebe2be6afU,
  0x3ccd31663e2a8f36U, 0xbcf0532abe8a5f59U, 0x3e2b997f3e865eb1U, 0xbe1adec9bd1cc48cU,
  0xbd6df5733decfb2eU, 0xbe44d3c1bdc632f6U, 0x3d730cd53d4c57dcU, 0xbdde95e2be2520fdU,
  0x3c98d372be87094dU, 0xbdc46b66be602793U, 0x3d82e9de3e44d306U, 0x3d83c0873c57a9d6U,
  0xbe2d3fcb3e5552a1U, 0x3d8679d4bc8bf921U, 0x3d814aaf3dca424aU, 0xbde1b3603d5ffad8U,
  0xbdd0e17e3df18858U, 0xbd9aa4dcbe1866a9U, 0x3e964fe83dbc2086U, 0xbddd40f6bedff4faU,
  0x3dce743bbd498586U, 0xbdffdc4bbddb436fU, 0x3dc7fd763d4b29f3U, 0xbdd2a30cbd7a6739U,
  0xbdf81ac63e71c89bU, 0xbd6f8197bd52ce79U, 0xbab8ca57bd7ac6bdU, 0x3d3a5cd93ce2bfa8U,
  0xbe548c5e3e0ace4eU, 0x3dd819863d87fd21U, 0x3da81de5bd2467e2U, 0xbdbbdba0be3c5332U,
  0x3e18a4b4be506026U, 0xbe2426a7be3247b1U, 0xbd04f79d3e5bbf40U, 0xbe05ab343c123c0eU,
  0xbd3f327e3e2313a1U, 0xbe170152be953e1aU, 0x3ea2c5903e8e4f72U, 0xbc8540ccbd115905U,
  0xbd8f8c1d3db022c4U, 0xbdeb2259bdd6c68aU, 0x39368c443d993fbcU, 0xbe8592bdbdec1106U,
  0xbc8edeedbe89a558U, 0xbd99a67cbe3c2780U, 0x3dcbd62b3e4aef94U, 0x3db635033d80ad39U,
  0x3e155619bdb0b1afU, 0xbd8d8d06bc881286U, 0xbea487c0bdb89ebeU, 0xbcea8705be46411dU,
  0x3d35c8e5be25cc8dU, 0x3d1eeb673cbfc649U, 0xbd0a37133ed0e3dfU, 0x3e6c2c113ea5ce45U,
  0x3e5f6bf23e780708U, 0x3e085bd13db0d967U, 0x3d9465163c397953U, 0xbd0ff6913d70c7a5U,
  0x3dd641793e274b7dU, 0x3bd4a92f3dcc0bf5U, 0xbe5ef982be0836b5U, 0xbdd9f0b3bc1a0677U,
  0xbd93d2fcbd5e747bU, 0xbdb72db23ab7a22eU, 0x3ebff3733e5b0a7dU, 0x3de8dca73e48ac0dU,
  0x3cc61db8be19b9faU, 0x3e8a1f3b3ea82629U, 0x3eeae72f3e3a5e91U, 0x3eb786a43d390c3bU,
  0x3e32210d3d568af2U, 0xbe1591d73d81fbcbU, 0xbe3d1dfebe1b5c27U, 0xbbbda8ccbe26bfedU,
  0xbd9a4d713e722784U, 0x3e22f5f5bdea9becU, 0x3ec34f953e62a08fU, 0xbe289db3bb0deca1U,
  0xbe0f15e43eb77dfbU, 0x3e54fb2a3f14e591U, 0x3e6f9db3bdbfe72bU, 0xbd57e6bcbbee28caU,
  0xbd2c6fe6bdc29f30U, 0xbdc358323e043110U, 0xbdf088883d9f32d1U, 0xbda5315fbd3eea81U,
  0x3bd700a8be82a7e4U, 0xbe8c8a06bd79e62bU, 0xbd070e6ebd0b2a80U, 0xbe3f1ef53f08bf1fU,
  0x3e4a9a42bcb9fa72U, 0x3d00b98d3d74e50fU, 0x3d995f593e104aefU, 0x3e2e86703e2b04f5U,
  0x3d4b37033c31177dU, 0x3ddd36a43e16ab62U, 0xbe6afec03e7264d8U, 0xbe827c26be3ac0e7U,
  0x3ce1c37abe6a1e2cU, 0xbe551144be88dd96U, 0xbc19ab8e3d41d37fU, 0xbd61f12d3e7eaf7dU,
  0x3e857fb83c0ee937U, 0x3e8482a6bcbbee8cU, 0x3e955b9d3cc40959U, 0x3ddc618f3d8d6410U,
  0xbd92e9933d49ba7cU, 0xbe30f8f53d54d0faU, 0xbe4a96303da4a1efU, 0xbd171b553e17c736U,
  0xbcdbef913e7f1d65U, 0x3e293068bd0149bfU, 0xbd1fdd463e4f9664U, 0xbd62cc563bda4755U,
  0xbd5623f03f07832cU, 0x3ea0f8d93e30f809U, 0x3e560ac1be683a62U, 0x3e4b1ee43d393d03U,
  0x3ddec753bd0dcd9cU, 0xbd86bc1e3dc26cb3U, 0xbe624ae1be6c8eceU, 0xbeb0da35bd2d3a98U,
  0x3e7d1986be1c3b62U, 0x3e00d248bdbabba2U, 0xbe176028bd896da3U, 0xbc71de323e12ae07U,
  0xbd7c415a3c82d9beU, 0x3e0b9b3f3df7a445U, 0x3d6bbc1ebc70a4abU, 0x3dc5d3c83ba7c6f1U,
  0x3d80b8d9bc80cdd5U, 0xbe0939ce3d9e57feU, 0xbe9aab5c3e0cd72dU, 0xbebdb50c3dba2242U,
  0x3ea900e9be370a77U, 0xbedbca76be14f656U, 0x3e8ac8d83e5fa1beU, 0xbe5986c43bf80db9U,
  0x3e9fb140be1875ffU, 0x3e71c279bd7309b0U, 0xbd21167e3dad0b8aU, 0xbd1d021cbeb25462U,
  0x3d8c268b3cbe9ae2U, 0xbc7516cebcaf3ec5U, 0x3d744a763da8ddcbU, 0xbdacaf383d596546U,
  0xbc5aa5803ea46321U, 0x3e826762bd41fb59U, 0xbd86f2013ebc7ecdU, 0x3d7b737d3ec0f629U,
  0x3d2b33b63f05e0b0U, 0x3eb8de223ebdee81U, 0x3e1f5496bcee7bf4U, 0xbdb04ff43d5168e0U,
  0x3d4ff08ebde3ba4bU, 0xbdca6ec8bd3b330dU, 0xbd64f458be0f1be9U, 0x3e4f67e2bebd8be6U,
  0x3dc8e9aebddc35b2U, 0xbce6ac563e916e89U, 0x3db62f723e1e1bf9U, 0x3da300d93f0617e2U,
  0xbd92d3d13ddcb992U, 0x3e7a829a3e07e8cbU, 0xbc9fb3d8be90a38aU, 0xbadbf5933ec98d96U,
  0x3e626871bdd35275U, 0xbe0002abbd2772aaU, 0x3d535c8abe4db615U, 0xbd8badb2be13b6bfU,
  0x3e21c5c2be45a5f5U, 0x3e0e83103c949c6eU, 0xbd9fad463da96605U, 0x3e02772f3e34cd09U,
  0x3cb01b67bb84f9cbU, 0x3e98d2aa3da082a3U, 0xbdab2574be6a8c1aU, 0x3e1a28b83e629ee4U,
  0x3ad97a86be746ad0U, 0xbe12de123ea783b7U, 0xbe7cbd74be0a786eU, 0x3db71ef1be94f0a8U,
  0xbd5ebf36be564609U, 0xbd49f26d3e83b3b8U, 0x3e764348be2dfebeU, 0x3df7deee3e138512U,
  0x3afe26ac3d1467c3U, 0x3cca95f63ea896ebU, 0x3bbbc5d1be81c26eU, 0xbc8bff60bdc17827U,
  0x3e1b2de5beab9832U, 0xbcab4484bdf3d79aU, 0xbcb551a1bdb211f5U, 0x3c3c8b21bcebd39cU,
  0x3dde148ebe56a048U, 0x3d8389113db5f343U, 0x3dbaf4bb3d4d36feU, 0x3c2d9cf23f22ca80U,
  0x3ba6b49e3ded9e43U, 0x3ded54693e3ff774U, 0xbe6af16ebe3ecf14U, 0xbcbae0833e9ff407U,
  0x3e1a8f7dbe344643U, 0x3e01540e3db26eccU, 0x3ce70d6abda4a721U, 0xbdb3ca79bbeee49fU,
  0x3ddfaaf7be19774bU, 0xbdd167cbbd5b8563U, 0xbd8df1233de27664U, 0x3c1bbef43e64c7fbU,
  0xbd35be573dcde2fcU, 0x3d954456bc41e00fU, 0xbd32c74cbdf238a0U, 0x3d6135883e9756f2U,
  0xbdc433cebe5d0785U, 0xbd1fc1233e4ac955U, 0xbde58b53be85188cU, 0x3e23b876ba94b2d7U,
  0x3d848dadbdbd3be9U, 0x3e19b3763e23838dU, 0xbd88185ebd109751U, 0x3e81891b3ea394e0U,
  0x392843503e773eecU, 0x3e7eb5143e8c2e37U, 0x390bc42bbe9f39c8U, 0x376552a0bdba5a1fU,
  0x3e43607fbebe3339U, 0x3a3cef0a3d0a71f2U, 0xbddba7bebe41edb1U, 0x3e5e08b33d6ab872U,
  0x3d8ca029be9d0f2aU, 0x3d982de63e071d37U, 0xbe95e30bbdd9359cU, 0x3da192893f30766bU,
  0xbd7feee63e6b935fU, 0x3da32e3c3e44c500U, 0xbe98498cbd3cbae8U, 0x3df042dbbc30ef90U,
  0x3d7d4b7abe2cade5U, 0x3e64aaf93da60219U, 0x3cf7b4fdbc8fd9a1U, 0xbbacbf9bbd1d4cedU,
  0x3e1a11fdbd0bad7aU, 0xbd21499b3d151de3U, 0xbd519b783ce449e7U, 0x3d7c32883ed4c2beU,
  0xbe5599db3e4ac966U, 0x3e51f5f73e47173cU, 0x3bdb75f0be2dc7b5U, 0x3e2f34ccbe2575dfU,
  0x3dfb9161bea6165aU, 0x3e1ac3de3ec22c40U, 0xbeac5c60beb54bc5U, 0x3de424443d57a85dU,
  0x3de31630be28d1fbU, 0x3cee16943dc7ab2cU, 0xbd8514a6bdc58407U, 0x3e6ca6fa3d53a9f9U,
  0xbdcd39f43e4cac7bU, 0x3e03a27b3ecbd58fU, 0xbcf96a21be9d1126U, 0xbe0b6b12bd9c9d81U,
  0x3de74dacbde01642U, 0xbe2f7fc03deeb999U, 0xbc88f2013df1c907U, 0xbe01dbdfbe66cc37U,
  0x3e362c60be86a2bdU, 0xbdc96780be08c20bU, 0x3e5b4c933db3bb07U, 0xbe8bd91e3efc25d1U,
  0x3c5f35e5be315986U, 0x3df06639bcb4dd5aU, 0x3e3c40373c062475U, 0xbd70287ebd6b274dU,
  0xbe1a46563df6e73cU, 0x3d9f0f5c3e34cea7U, 0xbe2739603cc4cce7U, 0xbe120f16bd95ca5fU,
  0xbd9bf25dbd766404U, 0xbda662c8bd5538ecU, 0x3d83cdbfbde7311cU, 0xbd4e79383e62e12dU,
  0x3ddd4fb6bc8da91aU, 0xbcdbfaf23dd891d2U, 0x3dcb1b223daa0723U, 0x3dadd5dbbe723fdfU,
  0xbdbef23b3d6eaf60U, 0xbe01b02dbdc7949eU, 0x3c89fce23d82b170U, 0xbd998e72bdbe4ab8U,
  0x3cf45da03e52cc0cU, 0x3cc29172be385d8cU, 0xbde454953e1bae87U, 0xbe896ef53d3f404bU,
  0xbd9ca50f3e5d5789U, 0x3e004a16bde7c04fU, 0x3e28388d3d0dc558U, 0xbd9fe3bc3d72cc5eU,
  0x3e1c32e2bdab49d4U, 0xbe4dbdbf3d7a9758U, 0xbdd834923daf87f8U, 0xbd843ea4be3e78fcU,
  0x3e2d495ebd9cdba4U, 0xbd5ff9cfbe0f0f56U, 0x3e5370a23d93e2c1U, 0xbe677b083f1d01edU,
  0x3de131c8be71d40fU, 0xbd5f2c3e3d0efd04U, 0x3de9a1693dcb9c94U, 0x3d37a0f0be311581U,
  0xbddc61703ccbbc8fU, 0x3da01ff03e38c5f7U, 0xbe01ff843c86cb78U, 0xbe0f33ccbde99479U,
  0xbd85e163bcc7e063U, 0xbd9852f9bdc35984U, 0x3d31e31dbe041c39U, 0xbd7827a93ea85c51U,
  0x3ce1898fbda456c8U, 0x3e1845e03bbfddfaU, 0x3e2a93193e0f3e4fU, 0x3de6e85cbe91de3aU,
  0xbdcfc0ad3e1a5cf7U, 0xbda1708dbc82830fU, 0x3e12331a3e0b543bU, 0xbe1e7a09bda1418cU,
  0x3e39b4be3dace906U, 0x3c22b555be770638U, 0xbd9416a63de0e7cfU, 0xbe9954e23dd642c3U,
  0xbda1ac6d3dfc107aU, 0x3e119d83be57680fU, 0x3e3e9c733dc9225bU, 0xbe19e66b3e1a149eU,
  0x3dc4c4cc3d03babfU, 0xbe8e1a283ddee0c1U, 0xbdabdc6d3c74140cU, 0xbd9ff72dbd5ab32fU,
  0x3e4a6fc63db9b837U, 0x3cf9e52abe2ad092U, 0x3e30f18e3d996431U, 0xbe0c3fe83ef994cfU,
  0x3e0fd246be80b50aU, 0xbd12a88e3d0427d2U, 0x3e60d012bdceddd0U, 0xbd0a239fbd56df26U,
  0xbd0efbaf3e31ebe6U, 0x3e1ad54e3d56e6ccU, 0xbe25f6503d87f828U, 0xbe443e84bd581819U,
  0xbdadd1003df76eadU, 0xbe217083be1f9ebbU, 0x3e072ec7bd59ed95U, 0xbd8f469b3e4eb597U,
  0x3e00b91ebde96a0fU, 0x3d201f023dfc33c8U, 0x3cebec103dde53f3U, 0xbd30b3f3be16521eU,
  0xbd975b263e29f821U, 0xbda8a78abd1e9afdU, 0x3e78da883df59c48U, 0xbdc97ef2be4fe897U,
  0x3ddfc3883e24b19bU, 0x3d46a4f5be9b401dU, 0xbdb202cc3dfa82bcU, 0xbea5eac63e0ededaU,
  0xbc87d0753e0023bbU, 0x3e8f502fbe0a1769U, 0x3e4c2bcd3de83054U, 0xbe05a0da3e3e7c70U,
  0x3c1584423dc29ee2U, 0x3dc506533da4ee52U, 0xbe17eda03d840b31U, 0xbe2109de3e5a33a4U,
  0xbd3dfbcb3db499bbU, 0xbe443eabbc76f325U, 0xbd6459b9bdbdc389U, 0x3e18f9cbbf127f4bU,
  0x3e1c23a13d343cb6U, 0xbda1a5273dc5188fU, 0xbd212c483e07fb21U, 0x3e1458aabeb4cc6fU,
  0x3e4bcf86bde4a872U, 0xbe5338a4be010d61U, 0xbb8a58e83db26f84U, 0xbc055fd9bce630a6U,
  0x3e74626bbd00145bU, 0xbe2b0b16bd737f51U, 0x3df38dd73de4c91fU, 0xbe2d89f1be500c11U,
  0xbe169fe5bd738933U, 0x3d8b81b63d041894U, 0xbbd152f0bb6c994cU, 0x3c22feb93d487f26U,
  0x3e072c473d3fa567U, 0x3d65d9023cc34829U, 0xbd72e8313e69698eU, 0xbdf671623cba1c8dU,
  0x3d82d3e0bda780c3U, 0xbdbe8efabd16f1a6U, 0x3e28a2a7bdb9102dU, 0xbcfc30c1be252f3fU,
  0x3e4386dbbe0ab4d1U, 0xbd5531c7bd439edbU, 0xbda3f3c13de8f751U, 0x3e38ab9bbe4cf6f2U,
  0xbdd0f1453e14ea97U, 0x3da9c6ca3d93bf6cU, 0xbdccd9373d856404U, 0xbe921f373c9b6b68U,
  0xbdc4e6fe3c1c3869U, 0xbd2bf1cb3c297656U, 0xbdb8efb0bdec8e38U, 0x3ddb4341bf2a9ff3U,
  0x3d9d26d43dae28f4U, 0x3da2003b3c0c5393U, 0x3d899a4fbc208137U, 0x3e098d7dbe630ec3U,
  0x3e4ca656bdaa517dU, 0xbe87e1babb3cc7f0U, 0xbdd28ba13e5c160cU, 0xbd40f762bd612e87U,
  0x3e39c023bbc56c0eU, 0x3cfaf506bb8cb99aU, 0x3d9b40e63dce38ffU, 0xbe3d2481bdca4ed3U,
  0x3e162efdbdbc87fdU, 0x3c019adcbd068d29U, 0x3cd88ad1bde9d588U, 0x3c9b49203e65b1f6U,
  0x3dced02ebc31c395U, 0x3c34532dbdf857ffU, 0xbd0adf3e3e83acffU, 0xbda9ff2f3da16cd5U,
  0xbd9833f8bdfbb47aU, 0xbe7932893d1b9bd0U, 0x3e2bd61d3baeba71U, 0xbdd1318bbe7fb639U,
  0x3dc34d7abe954e12U, 0xbe0831683d8ebee2U, 0xbc7111a63d8fef30U, 0x3e6c710bbe86f065U,
  0xbdb8a3873e262feeU, 0x3eb22c27bc74e5fdU, 0xbd92004b3d9a20d9U, 0xbe7a6ea7bb38ee80U,
  0xbe0a1f13be85969fU, 0xbe7a9b46bca6d553U, 0xbc2c0724bd826d33U, 0x3d50d1ccbef0fecfU,
  0x3e044739bb967314U, 0x3da20e043d3976daU, 0x3cb0f4663e2708d3U, 0x3dcd2ae8bdf23ca8U,
  0x3e3c5d81bd98e3a4U, 0xbe820b3e3bd60af9U, 0xbdb7b98d3c841509U, 0xbd8472af3cc8a90eU,
  0x3e368f1abe065781U, 0xbe06ae473ce6d54aU, 0x3d9e82b43de74094U, 0xbe27a56bbe25dbcaU,
  0x3d443a49be0dc698U, 0x3dd41a123d2e4f02U, 0x3dddad1abd105c71U, 0xb91564cb3d085898U,
  0x3d610daa3db65d16U, 0x3ce4bccfbe51add8U, 0xbc82487a3e78c7f2U, 0xbe24e31b3e4d4dceU,
  0xbbdafe89bde786ccU, 0xbe2b40513d94b885U, 0x3e1cc19a3d6c1fadU, 0xbd99c7dfbeb0590fU,
  0x3dc48a63be73795dU, 0xbe10b1ff3d7e8d10U, 0xbc568a7e3e474bd5U, 0x3e0813a0be84cd76U,
  0xbd3327c03e55b77dU, 0x3e430281bd2730e2U, 0xbe0d584b3d106e57U, 0xbdcd4a6f3e44b663U,
  0xbde304893e2b658dU, 0xbde8ae4dbb805ea4U, 0xbd15eea4be029bd1U, 0x3de04e3fbf2aa79cU,
  0x3dc45d093c8a19a0U, 0xbe0868e33e019c80U, 0xbd34a94d3e2b5ffcU, 0x3dee431dbe62fd39U,
  0x3dff3612bc3771a5U, 0xbe87a394bdcc8c69U, 0x3b1002843dd77ccbU, 0xbc040fc03d48869cU,
  0x3e682d0dbbdfc1d8U, 0xbe156337bd351b61U, 0x3dc3c79e3e04d67fU, 0xbe35d379be177e7fU,
  0xbdb7cf3d3b89e2f5U, 0x3d70eb7a3d40b43bU, 0xbce22eb83b6e11f0U, 0xbd0bc27a3dab3a16U,
  0x3e010d7f3d12cd8dU, 0xbac4617abd09a8e6U, 0xbcc075ec3e563a52U, 0xbd6837913e063773U,
  0x3db2f413bdced2ccU, 0xbdd0d9683b05c7e4U, 0x3e3123babd811fb4U, 0x3d7bf43fbe464d84U,
  0x3e105fdcbe8078fcU, 0xbdcbd26fbd016368U, 0xbdd6d5463e094331U, 0x3e3830bbbe51a503U,
  0xbcee8cfc3e4ed803U, 0x3db2b9673d946b3fU, 0xbdb59bc13d6be2dbU, 0xbe5e6b853e2b120cU,
  0xbd8e9cbebd23f662U, 0xbde6204dbb07a48eU, 0xbdc3494cbde8731dU, 0x3e0dee17bf524e44U,
  0x3a3532fa3e118b0eU, 0x3c21fda6bd7e34caU, 0x3cb9a6223d81d575U, 0x3e026d26be21671dU,
  0x3de3e969bd2f54ecU, 0xbe96acfabdea6f7dU, 0xbcbc22993ddd862eU, 0x3d00d504bd54aea2U,
  0x3e4128f5bd9a913dU, 0x3bb0a6ae3d99f1ffU, 0x3da815563e1e70d1U, 0xbdeee708be826646U,
  0x3cf009efbdfd4defU, 0x3d5df7d6bc829bfbU, 0xbc8d4fb6bdc82411U, 0x3aef6a2c3e317e21U,
  0x3dd777ac3dd3ce04U, 0xbde0cb0fbe03a6e8U, 0xbda8bf673e724ba5U, 0xbd934da93dcb576dU,
  0xbd671dc8be47a21aU, 0xbe57bb2a3d07b120U, 0x3dfe01243c27d1e7U, 0xbc5ab3a6be6a83dbU,
  0x3d96e076bebc41aaU, 0xbe1505593dc817e0U, 0xbd0ed1493e1b1a25U, 0x3e87aef0bea3402eU,
  0xbd90d9613e52175fU, 0x3e790e90bd27b03aU, 0xbd37bcd03d6e2919U, 0xbe903bba3b94d955U,
  0xbdc62aa9be49746aU, 0xbe59c6adbd6c6580U, 0x3d99520cbc5b6313U, 0xbc41e5e6bf40156aU,
  0x3e0380703c313ac0U, 0x3d7bd0963dceed48U, 0x39ce8c433e0cc262U, 0x3d8742e0be06d5bcU,
  0x3e0f60d1bd4fb979U, 0xbe8bf2363c2cb097U, 0xbcc76dd53c0cef36U, 0xbd2ba5c03d36c460U,
  0x3e49a2a3bdb7f7e1U, 0xbd91a7693d961a6bU, 0x3da9fb2a3e044a92U, 0xbdf85df3be8de6dcU,
  0x3dae7845be450d0aU, 0x3d5f9516bd087769U, 0x3cdf1f7fbc56d6bcU, 0x3c723b793dd87411U,
  0x3de1187b3e0ccda8U, 0xbba14365be25cf6dU, 0xbdc6691c3e1b6a15U, 0xbe29db223e319e53U,
  0xbd327fd8bdfd7253U, 0xbe4689323db9de21U, 0x3e1e7f583d0ba2c2U, 0xbd517b12be95808dU,
  0x3e086776bec0c32cU, 0xbe04d16e3dc2768aU, 0xbc80fc6d3e40a2e6U, 0x3e4b850abe77c6f1U,
  0xbd774cda3e8d88a4U, 0xbdeb5be8be149645U, 0x3e549c41bee5ebc2U, 0xbddc1afb3d1a4867U,
  0xbe79f45bbd2cbfe4U, 0xbe8f2d51bea84974U, 0xbec35c5a3eeb9b8fU, 0xbf8edc6fbfad86d0U,
  0x3eafc478be678e5fU, 0xbf916bc13ef885dcU, 0xbf9eb237bf31576cU, 0xbede6137bec36a6fU,
  0x3ebf7ee2be856e2fU, 0x3ebb95e33e7c088cU, 0x3f124db73f006453U, 0x3f04ab53bea80cdaU,
  0xbf0f88cabdc87cabU, 0x3e858cfc3ea0456aU, 0x3ed474293f127b3aU, 0x3ec29d5e3e80cf56U,
  0x3f2579b3be614551U, 0x3f0a34c5bec39bf1U, 0x3dc3cecebd942cd2U, 0xbf083187bee6ab64U,
  0xbebba600beaf6f01U, 0x3eac2e953e552b62U, 0xbf0ad0e9be36073eU, 0x3ef2595b3eea1e8cU,
  0x3e539366bf2f9291U, 0x3ea838de3eeade29U, 0x3edff97e3f364253U, 0x3ec1c5e9bf6c151bU,
};


